
// This is a TensorFlow Lite model file that has been converted into a C data
// array using the tensorflow.lite.util.convert_bytes_to_c_source() function.
// This form is useful for compiling into a binary for devices that don't have a
// file system.

#include "sine_model.h"

// We need to keep the data array aligned on some architectures.
#ifdef __has_attribute
#define HAVE_ATTRIBUTE(x) __has_attribute(x)
#else
#define HAVE_ATTRIBUTE(x) 0
#endif
#if HAVE_ATTRIBUTE(aligned) || (defined(__GNUC__) && !defined(__clang__))
#define DATA_ALIGN_ATTRIBUTE __attribute__((aligned(4)))
#else
#define DATA_ALIGN_ATTRIBUTE
#endif

const unsigned char sine_model[] DATA_ALIGN_ATTRIBUTE = {
    0x20, 0x00, 0x00, 0x00, 0x54, 0x46, 0x4c, 0x33, 0x00, 0x00, 0x00, 0x00, 0x00,
    0x00, 0x12, 0x00, 0x1c, 0x00, 0x04, 0x00, 0x08, 0x00, 0x0c, 0x00, 0x10, 0x00,
    0x14, 0x00, 0x00, 0x00, 0x18, 0x00, 0x12, 0x00, 0x00, 0x00, 0x03, 0x00, 0x00,
    0x00, 0xb4, 0x08, 0x00, 0x00, 0xa8, 0x03, 0x00, 0x00, 0x90, 0x03, 0x00, 0x00,
    0x3c, 0x00, 0x00, 0x00, 0x04, 0x00, 0x00, 0x00, 0x01, 0x00, 0x00, 0x00, 0x0c,
    0x00, 0x00, 0x00, 0x08, 0x00, 0x0c, 0x00, 0x04, 0x00, 0x08, 0x00, 0x08, 0x00,
    0x00, 0x00, 0x08, 0x00, 0x00, 0x00, 0x0b, 0x00, 0x00, 0x00, 0x13, 0x00, 0x00,
    0x00, 0x6d, 0x69, 0x6e, 0x5f, 0x72, 0x75, 0x6e, 0x74, 0x69, 0x6d, 0x65, 0x5f,
    0x76, 0x65, 0x72, 0x73, 0x69, 0x6f, 0x6e, 0x00, 0x0c, 0x00, 0x00, 0x00, 0x48,
    0x03, 0x00, 0x00, 0x34, 0x03, 0x00, 0x00, 0x18, 0x03, 0x00, 0x00, 0xd4, 0x02,
    0x00, 0x00, 0x90, 0x02, 0x00, 0x00, 0x4c, 0x02, 0x00, 0x00, 0xa8, 0x00, 0x00,
    0x00, 0x64, 0x00, 0x00, 0x00, 0x58, 0x00, 0x00, 0x00, 0x44, 0x00, 0x00, 0x00,
    0x30, 0x00, 0x00, 0x00, 0x04, 0x00, 0x00, 0x00, 0x16, 0xfd, 0xff, 0xff, 0x04,
    0x00, 0x00, 0x00, 0x10, 0x00, 0x00, 0x00, 0x31, 0x2e, 0x35, 0x2e, 0x30, 0x00,
    0x00, 0x00, 0x00, 0x00, 0x00, 0x00, 0x00, 0x00, 0x00, 0x00, 0x00, 0x00, 0x00,
    0x00, 0x00, 0x00, 0x00, 0x00, 0x00, 0x00, 0x00, 0x00, 0x18, 0xf8, 0xff, 0xff,
    0x00, 0x00, 0x00, 0x00, 0x00, 0x00, 0x00, 0x00, 0x00, 0x00, 0x00, 0x00, 0x28,
    0xf8, 0xff, 0xff, 0x00, 0x00, 0x00, 0x00, 0x00, 0x00, 0x00, 0x00, 0x00, 0x00,
    0x00, 0x00, 0x38, 0xf8, 0xff, 0xff, 0x00, 0x00, 0x00, 0x00, 0x66, 0xfd, 0xff,
    0xff, 0x04, 0x00, 0x00, 0x00, 0x28, 0x00, 0x00, 0x00, 0x50, 0x0e, 0x82, 0xbf,
    0x82, 0x97, 0xc8, 0x3f, 0xeb, 0x2e, 0x42, 0xbf, 0xe8, 0xec, 0xb2, 0xbe, 0x4c,
    0x7b, 0x8d, 0x3f, 0x5a, 0x11, 0x38, 0xbf, 0x6e, 0xbd, 0x95, 0x3e, 0x3e, 0xf0,
    0x69, 0x3e, 0x0c, 0x7f, 0x44, 0x3f, 0xe6, 0x79, 0xa6, 0xbe, 0x00, 0x00, 0x00,
    0x00, 0x00, 0x00, 0x00, 0x00, 0x00, 0x00, 0x00, 0x00, 0xa6, 0xfd, 0xff, 0xff,
    0x04, 0x00, 0x00, 0x00, 0x90, 0x01, 0x00, 0x00, 0xc2, 0x89, 0x1c, 0xbf, 0xb6,
    0x2c, 0x04, 0x3f, 0x66, 0x75, 0x84, 0x3e, 0xda, 0xfe, 0xc0, 0xbe, 0x9c, 0x5b,
    0x29, 0x3f, 0xe8, 0x89, 0xa4, 0x3e, 0x84, 0x45, 0xd7, 0x3e, 0xa9, 0x18, 0x04,
    0xbf, 0xf0, 0xcb, 0x27, 0xbf, 0xb2, 0xa0, 0xff, 0xbe, 0xcd, 0xfd, 0x87, 0xbc,
    0xde, 0x52, 0xbc, 0xbe, 0x14, 0x63, 0x40, 0xbe, 0xab, 0xfa, 0xd8, 0xbf, 0x6b,
    0x58, 0x1a, 0x3f, 0x40, 0x3e, 0xe8, 0x3c, 0x4c, 0xfb, 0xd7, 0xbd, 0x3e, 0xd9,
    0x1d, 0xbf, 0xca, 0xec, 0xbf, 0x3e, 0x20, 0x4e, 0x76, 0x3d, 0x2a, 0x31, 0x3a,
    0x3d, 0xc8, 0x39, 0x0a, 0x3f, 0x4c, 0x93, 0x83, 0x3e, 0xcf, 0x3d, 0x9a, 0xbf,
    0xa7, 0xb0, 0x4b, 0x3f, 0xc6, 0x1a, 0x88, 0xbe, 0xd6, 0x88, 0xd5, 0xbe, 0xbb,
    0xe6, 0xcd, 0xbb, 0xcd, 0x5a, 0x91, 0xbd, 0x02, 0xf9, 0x49, 0xbe, 0x6f, 0x45,
    0x23, 0x3d, 0xa0, 0x3e, 0xd3, 0xbc, 0x84, 0x50, 0xed, 0x3e, 0x8b, 0x8a, 0x81,
    0xbf, 0xb0, 0xd9, 0x4d, 0xbe, 0xc0, 0x15, 0x1f, 0xbd, 0x68, 0x14, 0xb0, 0x3e,
    0x93, 0xef, 0xcd, 0x3d, 0x30, 0x4f, 0x02, 0x3f, 0xee, 0xc7, 0x06, 0x3f, 0xcf,
    0xe9, 0x81, 0xbd, 0x5c, 0xc6, 0xa8, 0xbe, 0x48, 0x8f, 0x1e, 0x3e, 0x4c, 0xba,
    0x99, 0xbf, 0x9d, 0x85, 0x63, 0x3f, 0x78, 0x7c, 0x8f, 0xbe, 0x00, 0x6d, 0x6e,
    0x3c, 0xed, 0x78, 0xb9, 0xbe, 0xaa, 0x0e, 0xc7, 0x3d, 0x6e, 0xc9, 0xa9, 0x3e,
    0xf4, 0xcc, 0x66, 0x3e, 0x26, 0x5b, 0xb8, 0xbe, 0xae, 0x3f, 0xa3, 0xbe, 0x54,
    0xdf, 0x3a, 0xbe, 0xe0, 0x9e, 0xe2, 0x3e, 0x30, 0x4f, 0x26, 0x3d, 0xf2, 0x49,
    0x02, 0x3f, 0x8d, 0x9c, 0x07, 0x3d, 0xa8, 0xaf, 0x50, 0xbd, 0xe7, 0xf2, 0xf9,
    0xbe, 0x70, 0x13, 0x14, 0x3e, 0x58, 0xed, 0xea, 0x3e, 0x96, 0xf8, 0xb8, 0x3e,
    0x9c, 0x0e, 0xad, 0xbe, 0xbc, 0x52, 0x9e, 0xbe, 0xb8, 0xb2, 0x03, 0xbe, 0x5c,
    0x17, 0xe5, 0x3e, 0x76, 0xb1, 0xb7, 0x3e, 0x0c, 0xb6, 0xd0, 0xbe, 0xde, 0xb3,
    0xff, 0xbe, 0x6a, 0x1d, 0xf8, 0x3e, 0x78, 0x01, 0xd6, 0xbd, 0x4d, 0x93, 0xa8,
    0xbe, 0xaa, 0x97, 0xcc, 0x3e, 0x31, 0x27, 0x52, 0xbe, 0xa2, 0xd5, 0x9d, 0xbe,
    0x5e, 0x4f, 0x19, 0xbe, 0x4d, 0x44, 0x13, 0x3f, 0x43, 0x73, 0xe3, 0x3e, 0xe6,
    0xea, 0x5f, 0xbe, 0x02, 0x19, 0xaa, 0x3e, 0x11, 0x5b, 0xbe, 0xbe, 0x7c, 0x93,
    0x1f, 0x3e, 0x6d, 0x0c, 0x47, 0x3e, 0x5d, 0x02, 0x9d, 0xbe, 0x16, 0xaa, 0xcd,
    0x3e, 0xaa, 0xb1, 0xdd, 0x3e, 0x78, 0x34, 0xe5, 0xbd, 0xaf, 0x3c, 0xb7, 0x3e,
    0x8a, 0x39, 0xaf, 0xbe, 0x8b, 0x2e, 0x79, 0x3e, 0x20, 0x4c, 0x4c, 0xbd, 0xb6,
    0xbe, 0x06, 0x3f, 0x97, 0xfd, 0x75, 0xbf, 0x6f, 0x29, 0x0f, 0x3f, 0xf8, 0x1d,
    0xee, 0xbd, 0xd6, 0x0d, 0x44, 0xbe, 0x1d, 0xc7, 0xa7, 0xbe, 0x56, 0x21, 0xa2,
    0x3e, 0x66, 0xbd, 0xa5, 0x3e, 0x00, 0x00, 0x00, 0x00, 0x46, 0xff, 0xff, 0xff,
    0x04, 0x00, 0x00, 0x00, 0x28, 0x00, 0x00, 0x00, 0x27, 0x11, 0xad, 0x3e, 0x80,
    0xd4, 0x63, 0xbe, 0xab, 0x23, 0xad, 0xbe, 0x90, 0xad, 0x99, 0x3e, 0xc5, 0x8b,
    0x11, 0x3d, 0xa7, 0xb5, 0xd1, 0xbe, 0xc8, 0x2f, 0x08, 0xbf, 0x08, 0xe1, 0x20,
    0x3f, 0x22, 0x6c, 0x1d, 0x3f, 0xf3, 0x2d, 0x2d, 0xbf, 0x00, 0x00, 0x00, 0x00,
    0x00, 0x00, 0x00, 0x00, 0x00, 0x00, 0x00, 0x00, 0x86, 0xff, 0xff, 0xff, 0x04,
    0x00, 0x00, 0x00, 0x28, 0x00, 0x00, 0x00, 0xae, 0x63, 0x4e, 0xbc, 0x00, 0x00,
    0x00, 0x00, 0x00, 0x00, 0x00, 0x00, 0x8d, 0x7c, 0x3a, 0xbf, 0xf5, 0x07, 0x93,
    0x3f, 0x00, 0x00, 0x00, 0x00, 0x00, 0x00, 0x00, 0x00, 0x4b, 0xbf, 0x18, 0xbf,
    0xd0, 0x0d, 0xd2, 0x3c, 0x00, 0x00, 0x00, 0x00, 0x00, 0x00, 0x00, 0x00, 0x00,
    0x00, 0x00, 0x00, 0x00, 0x00, 0x00, 0x00, 0xc6, 0xff, 0xff, 0xff, 0x04, 0x00,
    0x00, 0x00, 0x28, 0x00, 0x00, 0x00, 0xb3, 0xb1, 0xb2, 0x3e, 0xff, 0x42, 0x09,
    0x3f, 0x4a, 0x81, 0x06, 0x3f, 0x51, 0xdf, 0xad, 0x3d, 0x65, 0x32, 0x11, 0x3f,
    0x78, 0xc6, 0x93, 0x3e, 0x00, 0x00, 0x00, 0x00, 0xbf, 0x16, 0xca, 0xbe, 0xbe,
    0xba, 0xe4, 0xbe, 0xc8, 0xcd, 0x4f, 0x3e, 0x00, 0x00, 0x00, 0x00, 0x00, 0x00,
    0x06, 0x00, 0x08, 0x00, 0x04, 0x00, 0x06, 0x00, 0x00, 0x00, 0x04, 0x00, 0x00,
    0x00, 0x04, 0x00, 0x00, 0x00, 0x3f, 0xbc, 0x02, 0xbf, 0x00, 0x00, 0x00, 0x00,
    0x00, 0x00, 0x00, 0x00, 0xf8, 0xfa, 0xff, 0xff, 0x00, 0x00, 0x00, 0x00, 0x00,
    0x00, 0x00, 0x00, 0x00, 0x00, 0x00, 0x00, 0x08, 0xfb, 0xff, 0xff, 0x0f, 0x00,
    0x00, 0x00, 0x4d, 0x4c, 0x49, 0x52, 0x20, 0x43, 0x6f, 0x6e, 0x76, 0x65, 0x72,
    0x74, 0x65, 0x64, 0x2e, 0x00, 0x01, 0x00, 0x00, 0x00, 0x14, 0x00, 0x00, 0x00,
    0x00, 0x00, 0x0e, 0x00, 0x18, 0x00, 0x04, 0x00, 0x08, 0x00, 0x0c, 0x00, 0x10,
    0x00, 0x14, 0x00, 0x0e, 0x00, 0x00, 0x00, 0x00, 0x01, 0x00, 0x00, 0xf4, 0x00,
    0x00, 0x00, 0xe8, 0x00, 0x00, 0x00, 0x14, 0x00, 0x00, 0x00, 0x04, 0x00, 0x00,
    0x00, 0x04, 0x00, 0x00, 0x00, 0x6d, 0x61, 0x69, 0x6e, 0x00, 0x00, 0x00, 0x00,
    0x03, 0x00, 0x00, 0x00, 0x90, 0x00, 0x00, 0x00, 0x48, 0x00, 0x00, 0x00, 0x04,
    0x00, 0x00, 0x00, 0xce, 0xff, 0xff, 0xff, 0x00, 0x00, 0x00, 0x08, 0x18, 0x00,
    0x00, 0x00, 0x0c, 0x00, 0x00, 0x00, 0x04, 0x00, 0x00, 0x00, 0x80, 0xfb, 0xff,
    0xff, 0x01, 0x00, 0x00, 0x00, 0x09, 0x00, 0x00, 0x00, 0x03, 0x00, 0x00, 0x00,
    0x08, 0x00, 0x00, 0x00, 0x06, 0x00, 0x00, 0x00, 0x01, 0x00, 0x00, 0x00, 0x00,
    0x00, 0x0e, 0x00, 0x14, 0x00, 0x00, 0x00, 0x08, 0x00, 0x0c, 0x00, 0x07, 0x00,
    0x10, 0x00, 0x0e, 0x00, 0x00, 0x00, 0x00, 0x00, 0x00, 0x08, 0x1c, 0x00, 0x00,
    0x00, 0x10, 0x00, 0x00, 0x00, 0x04, 0x00, 0x00, 0x00, 0xba, 0xff, 0xff, 0xff,
    0x00, 0x00, 0x00, 0x01, 0x01, 0x00, 0x00, 0x00, 0x08, 0x00, 0x00, 0x00, 0x03,
    0x00, 0x00, 0x00, 0x07, 0x00, 0x00, 0x00, 0x05, 0x00, 0x00, 0x00, 0x02, 0x00,
    0x00, 0x00, 0x00, 0x00, 0x0e, 0x00, 0x16, 0x00, 0x00, 0x00, 0x08, 0x00, 0x0c,
    0x00, 0x07, 0x00, 0x10, 0x00, 0x0e, 0x00, 0x00, 0x00, 0x00, 0x00, 0x00, 0x08,
    0x24, 0x00, 0x00, 0x00, 0x18, 0x00, 0x00, 0x00, 0x0c, 0x00, 0x00, 0x00, 0x00,
    0x00, 0x06, 0x00, 0x08, 0x00, 0x07, 0x00, 0x06, 0x00, 0x00, 0x00, 0x00, 0x00,
    0x00, 0x01, 0x01, 0x00, 0x00, 0x00, 0x07, 0x00, 0x00, 0x00, 0x03, 0x00, 0x00,
    0x00, 0x00, 0x00, 0x00, 0x00, 0x04, 0x00, 0x00, 0x00, 0x03, 0x00, 0x00, 0x00,
    0x01, 0x00, 0x00, 0x00, 0x09, 0x00, 0x00, 0x00, 0x01, 0x00, 0x00, 0x00, 0x00,
    0x00, 0x00, 0x00, 0x0a, 0x00, 0x00, 0x00, 0x9c, 0x03, 0x00, 0x00, 0x28, 0x03,
    0x00, 0x00, 0xb8, 0x02, 0x00, 0x00, 0x58, 0x02, 0x00, 0x00, 0x0c, 0x02, 0x00,
    0x00, 0xc0, 0x01, 0x00, 0x00, 0x74, 0x01, 0x00, 0x00, 0xe0, 0x00, 0x00, 0x00,
    0x4c, 0x00, 0x00, 0x00, 0x04, 0x00, 0x00, 0x00, 0xa0, 0xfc, 0xff, 0xff, 0x34,
    0x00, 0x00, 0x00, 0x0a, 0x00, 0x00, 0x00, 0x1c, 0x00, 0x00, 0x00, 0x14, 0x00,
    0x00, 0x00, 0x04, 0x00, 0x00, 0x00, 0x02, 0x00, 0x00, 0x00, 0xff, 0xff, 0xff,
    0xff, 0x01, 0x00, 0x00, 0x00, 0x8c, 0xfc, 0xff, 0xff, 0x08, 0x00, 0x00, 0x00,
    0x49, 0x64, 0x65, 0x6e, 0x74, 0x69, 0x74, 0x79, 0x00, 0x00, 0x00, 0x00, 0x02,
    0x00, 0x00, 0x00, 0x01, 0x00, 0x00, 0x00, 0x01, 0x00, 0x00, 0x00, 0xe4, 0xfc,
    0xff, 0xff, 0x80, 0x00, 0x00, 0x00, 0x09, 0x00, 0x00, 0x00, 0x1c, 0x00, 0x00,
    0x00, 0x14, 0x00, 0x00, 0x00, 0x04, 0x00, 0x00, 0x00, 0x02, 0x00, 0x00, 0x00,
    0xff, 0xff, 0xff, 0xff, 0x0a, 0x00, 0x00, 0x00, 0xd0, 0xfc, 0xff, 0xff, 0x55,
    0x00, 0x00, 0x00, 0x73, 0x65, 0x71, 0x75, 0x65, 0x6e, 0x74, 0x69, 0x61, 0x6c,
    0x5f, 0x34, 0x2f, 0x64, 0x65, 0x6e, 0x73, 0x65, 0x5f, 0x31, 0x33, 0x2f, 0x4d,
    0x61, 0x74, 0x4d, 0x75, 0x6c, 0x3b, 0x73, 0x65, 0x71, 0x75, 0x65, 0x6e, 0x74,
    0x69, 0x61, 0x6c, 0x5f, 0x34, 0x2f, 0x64, 0x65, 0x6e, 0x73, 0x65, 0x5f, 0x31,
    0x33, 0x2f, 0x52, 0x65, 0x6c, 0x75, 0x3b, 0x73, 0x65, 0x71, 0x75, 0x65, 0x6e,
    0x74, 0x69, 0x61, 0x6c, 0x5f, 0x34, 0x2f, 0x64, 0x65, 0x6e, 0x73, 0x65, 0x5f,
    0x31, 0x33, 0x2f, 0x42, 0x69, 0x61, 0x73, 0x41, 0x64, 0x64, 0x00, 0x00, 0x00,
    0x02, 0x00, 0x00, 0x00, 0x01, 0x00, 0x00, 0x00, 0x0a, 0x00, 0x00, 0x00, 0x74,
    0xfd, 0xff, 0xff, 0x80, 0x00, 0x00, 0x00, 0x08, 0x00, 0x00, 0x00, 0x1c, 0x00,
    0x00, 0x00, 0x14, 0x00, 0x00, 0x00, 0x04, 0x00, 0x00, 0x00, 0x02, 0x00, 0x00,
    0x00, 0xff, 0xff, 0xff, 0xff, 0x0a, 0x00, 0x00, 0x00, 0x60, 0xfd, 0xff, 0xff,
    0x55, 0x00, 0x00, 0x00, 0x73, 0x65, 0x71, 0x75, 0x65, 0x6e, 0x74, 0x69, 0x61,
    0x6c, 0x5f, 0x34, 0x2f, 0x64, 0x65, 0x6e, 0x73, 0x65, 0x5f, 0x31, 0x32, 0x2f,
    0x4d, 0x61, 0x74, 0x4d, 0x75, 0x6c, 0x3b, 0x73, 0x65, 0x71, 0x75, 0x65, 0x6e,
    0x74, 0x69, 0x61, 0x6c, 0x5f, 0x34, 0x2f, 0x64, 0x65, 0x6e, 0x73, 0x65, 0x5f,
    0x31, 0x32, 0x2f, 0x52, 0x65, 0x6c, 0x75, 0x3b, 0x73, 0x65, 0x71, 0x75, 0x65,
    0x6e, 0x74, 0x69, 0x61, 0x6c, 0x5f, 0x34, 0x2f, 0x64, 0x65, 0x6e, 0x73, 0x65,
    0x5f, 0x31, 0x32, 0x2f, 0x42, 0x69, 0x61, 0x73, 0x41, 0x64, 0x64, 0x00, 0x00,
    0x00, 0x02, 0x00, 0x00, 0x00, 0x01, 0x00, 0x00, 0x00, 0x0a, 0x00, 0x00, 0x00,
    0x6e, 0xfe, 0xff, 0xff, 0x38, 0x00, 0x00, 0x00, 0x07, 0x00, 0x00, 0x00, 0x0c,
    0x00, 0x00, 0x00, 0x04, 0x00, 0x00, 0x00, 0xe0, 0xfd, 0xff, 0xff, 0x1c, 0x00,
    0x00, 0x00, 0x73, 0x65, 0x71, 0x75, 0x65, 0x6e, 0x74, 0x69, 0x61, 0x6c, 0x5f,
    0x34, 0x2f, 0x64, 0x65, 0x6e, 0x73, 0x65, 0x5f, 0x31, 0x34, 0x2f, 0x4d, 0x61,
    0x74, 0x4d, 0x75, 0x6c, 0x00, 0x00, 0x00, 0x00, 0x02, 0x00, 0x00, 0x00, 0x01,
    0x00, 0x00, 0x00, 0x0a, 0x00, 0x00, 0x00, 0xb6, 0xfe, 0xff, 0xff, 0x38, 0x00,
    0x00, 0x00, 0x06, 0x00, 0x00, 0x00, 0x0c, 0x00, 0x00, 0x00, 0x04, 0x00, 0x00,
    0x00, 0x28, 0xfe, 0xff, 0xff, 0x1c, 0x00, 0x00, 0x00, 0x73, 0x65, 0x71, 0x75,
    0x65, 0x6e, 0x74, 0x69, 0x61, 0x6c, 0x5f, 0x34, 0x2f, 0x64, 0x65, 0x6e, 0x73,
    0x65, 0x5f, 0x31, 0x33, 0x2f, 0x4d, 0x61, 0x74, 0x4d, 0x75, 0x6c, 0x00, 0x00,
    0x00, 0x00, 0x02, 0x00, 0x00, 0x00, 0x0a, 0x00, 0x00, 0x00, 0x0a, 0x00, 0x00,
    0x00, 0xfe, 0xfe, 0xff, 0xff, 0x38, 0x00, 0x00, 0x00, 0x05, 0x00, 0x00, 0x00,
    0x0c, 0x00, 0x00, 0x00, 0x04, 0x00, 0x00, 0x00, 0x70, 0xfe, 0xff, 0xff, 0x1c,
    0x00, 0x00, 0x00, 0x73, 0x65, 0x71, 0x75, 0x65, 0x6e, 0x74, 0x69, 0x61, 0x6c,
    0x5f, 0x34, 0x2f, 0x64, 0x65, 0x6e, 0x73, 0x65, 0x5f, 0x31, 0x32, 0x2f, 0x4d,
    0x61, 0x74, 0x4d, 0x75, 0x6c, 0x00, 0x00, 0x00, 0x00, 0x02, 0x00, 0x00, 0x00,
    0x0a, 0x00, 0x00, 0x00, 0x01, 0x00, 0x00, 0x00, 0x46, 0xff, 0xff, 0xff, 0x50,
    0x00, 0x00, 0x00, 0x04, 0x00, 0x00, 0x00, 0x0c, 0x00, 0x00, 0x00, 0x04, 0x00,
    0x00, 0x00, 0xb8, 0xfe, 0xff, 0xff, 0x35, 0x00, 0x00, 0x00, 0x73, 0x65, 0x71,
    0x75, 0x65, 0x6e, 0x74, 0x69, 0x61, 0x6c, 0x5f, 0x34, 0x2f, 0x64, 0x65, 0x6e,
    0x73, 0x65, 0x5f, 0x31, 0x32, 0x2f, 0x42, 0x69, 0x61, 0x73, 0x41, 0x64, 0x64,
    0x2f, 0x52, 0x65, 0x61, 0x64, 0x56, 0x61, 0x72, 0x69, 0x61, 0x62, 0x6c, 0x65,
    0x4f, 0x70, 0x2f, 0x72, 0x65, 0x73, 0x6f, 0x75, 0x72, 0x63, 0x65, 0x00, 0x00,
    0x00, 0x01, 0x00, 0x00, 0x00, 0x0a, 0x00, 0x00, 0x00, 0xa2, 0xff, 0xff, 0xff,
    0x50, 0x00, 0x00, 0x00, 0x03, 0x00, 0x00, 0x00, 0x0c, 0x00, 0x00, 0x00, 0x04,
    0x00, 0x00, 0x00, 0x14, 0xff, 0xff, 0xff, 0x35, 0x00, 0x00, 0x00, 0x73, 0x65,
    0x71, 0x75, 0x65, 0x6e, 0x74, 0x69, 0x61, 0x6c, 0x5f, 0x34, 0x2f, 0x64, 0x65,
    0x6e, 0x73, 0x65, 0x5f, 0x31, 0x33, 0x2f, 0x42, 0x69, 0x61, 0x73, 0x41, 0x64,
    0x64, 0x2f, 0x52, 0x65, 0x61, 0x64, 0x56, 0x61, 0x72, 0x69, 0x61, 0x62, 0x6c,
    0x65, 0x4f, 0x70, 0x2f, 0x72, 0x65, 0x73, 0x6f, 0x75, 0x72, 0x63, 0x65, 0x00,
    0x00, 0x00, 0x01, 0x00, 0x00, 0x00, 0x0a, 0x00, 0x00, 0x00, 0x00, 0x00, 0x0e,
    0x00, 0x14, 0x00, 0x04, 0x00, 0x00, 0x00, 0x08, 0x00, 0x0c, 0x00, 0x10, 0x00,
    0x0e, 0x00, 0x00, 0x00, 0x50, 0x00, 0x00, 0x00, 0x02, 0x00, 0x00, 0x00, 0x0c,
    0x00, 0x00, 0x00, 0x04, 0x00, 0x00, 0x00, 0x80, 0xff, 0xff, 0xff, 0x35, 0x00,
    0x00, 0x00, 0x73, 0x65, 0x71, 0x75, 0x65, 0x6e, 0x74, 0x69, 0x61, 0x6c, 0x5f,
    0x34, 0x2f, 0x64, 0x65, 0x6e, 0x73, 0x65, 0x5f, 0x31, 0x34, 0x2f, 0x42, 0x69,
    0x61, 0x73, 0x41, 0x64, 0x64, 0x2f, 0x52, 0x65, 0x61, 0x64, 0x56, 0x61, 0x72,
    0x69, 0x61, 0x62, 0x6c, 0x65, 0x4f, 0x70, 0x2f, 0x72, 0x65, 0x73, 0x6f, 0x75,
    0x72, 0x63, 0x65, 0x00, 0x00, 0x00, 0x01, 0x00, 0x00, 0x00, 0x01, 0x00, 0x00,
    0x00, 0x14, 0x00, 0x18, 0x00, 0x04, 0x00, 0x00, 0x00, 0x08, 0x00, 0x0c, 0x00,
    0x10, 0x00, 0x00, 0x00, 0x00, 0x00, 0x14, 0x00, 0x14, 0x00, 0x00, 0x00, 0x3c,
    0x00, 0x00, 0x00, 0x01, 0x00, 0x00, 0x00, 0x20, 0x00, 0x00, 0x00, 0x18, 0x00,
    0x00, 0x00, 0x04, 0x00, 0x00, 0x00, 0x02, 0x00, 0x00, 0x00, 0xff, 0xff, 0xff,
    0xff, 0x01, 0x00, 0x00, 0x00, 0x04, 0x00, 0x04, 0x00, 0x04, 0x00, 0x00, 0x00,
    0x0e, 0x00, 0x00, 0x00, 0x64, 0x65, 0x6e, 0x73, 0x65, 0x5f, 0x31, 0x32, 0x5f,
    0x69, 0x6e, 0x70, 0x75, 0x74, 0x00, 0x00, 0x02, 0x00, 0x00, 0x00, 0x01, 0x00,
    0x00, 0x00, 0x01, 0x00, 0x00, 0x00, 0x01, 0x00, 0x00, 0x00, 0x10, 0x00, 0x00,
    0x00, 0x0c, 0x00, 0x10, 0x00, 0x07, 0x00, 0x00, 0x00, 0x08, 0x00, 0x0c, 0x00,
    0x0c, 0x00, 0x00, 0x00, 0x00, 0x00, 0x00, 0x09, 0x09, 0x00, 0x00, 0x00, 0x09,
    0x00, 0x00, 0x00,
};
const int sine_model_len = 2304;
